TRT-7202-EntropyCalibration
images: 3c010a14
171: 3c010a14
176: 3c010a14
181: 3c010a14
186: 3c010a14
191: 3c010a14
196: 3c010a14
201: 3c010a14
206: 3c010a14
208: 3e0732a1
216: 3d9bbe52
217: 3eb621a4
225: 3e0c5ab8
226: 3d73c99e
234: 3cc346fc
235: 3d911a0a
243: 3d0b0247
244: 3d834577
253: 3d8d1b91
254: 3d3a9c11
255: 3dcc5b27
257: 3d59f8bf
258: 3cdabc02
259: 3da70bde
267: 3d1be05e
268: 3d1c34ea
276: 3cae18ce
277: 3cb79490
285: 3bc1d3be
286: 3d26dd9c
294: 3d2b8460
295: 3ccf3f9a
304: 3c10705a
305: 3d180476
313: 3d0246c6
314: 3d0bc369
323: 3cccf661
324: 3d49b789
332: 3d03b2f5
333: 3d549b08
342: 3d3a9ab3
343: 3c9bf81d
344: 3c379a3e
346: 3d3c0c81
347: 3d3c958e
348: 3d31eeb2
356: 3cc3a4af
357: 3d816cae
365: 3c840fe5
366: 3d05f614
374: 3c0d4d14
375: 3d942a99
383: 3d1cab2e
384: 3d3977a5
393: 3cdc9d76
394: 3d5f8133
402: 3cd0cc6c
403: 3d680488
412: 3d1f8db9
413: 3d67ff1b
421: 3cacca3d
422: 3d9a1b35
431: 3d9a7c15
432: 3ce426e0
433: 3c646bab
435: 3d935109
436: 3d2c7b92
437: 3d764db3
445: 3cac9d66
446: 3d98b522
454: 3cef7d13
455: 3d5299c6
463: 3d41be91
464: 3d60fd7c
465: 3d895e4e
466: 3d895e4e
468: 3d89551d
476: 3cf1be7d
477: 3da6127e
485: 3d1cd321
486: 3d985172
494: 3d1c6097
495: 3d906f4c
503: 3cf21925
504: 3c60442f
505: 3c7a804c
507: 3d56afb4
508: 3d031549
509: 3d9780d0
517: 3d1bcaae
518: 3d6ad6f8
526: 3cf1113f
531: 3cf1113f
533: 3d4516ae
541: 3cacabf9
542: 3d6cb5da
550: 3d0f2ba1
551: 3d53de16
559: 3cb74294
560: 3c3d8da4
561: 3cb7e35d
563: 3d6637ad
564: 3d0933d5
565: 3d7740ca
573: 3d0dfd07
574: 3d4dc84d
582: 3d0d89c5
587: 3d0d89c5
589: 3d1f58f9
597: 3c8d6ec5
598: 3d3302c2
606: 3cc26ed5
607: 3d88fffd
615: 3d1b051c
616: 3cb43ada
617: 3c847ea1
619: 3d8292da
620: 3d24a9c2
621: 3e17a51f
629: 3dc84465
630: 3d5b9354
638: 3d0e3322
640: 3d5ce054
648: 3d030aec
649: 3d56cef4
657: 3cd0da8a
658: 3d98adf4
666: 3d1d7d88
667: 3c5e627d
668: 3c95c1f8
670: 3d90a77b
671: 3d16cc41
672: 3e0454e8
680: 3d9db226
681: 3d748ee7
689: 3d1df653
691: 3d8b349c
699: 3d1dc0df
700: 3d814026
708: 3d0d5749
709: 3da75777
717: 3d2cf0c1
718: 3c663efb
719: 3c7e6066
721: 3d8a9bc5
722: 3d0d3390
723: 3dcb3b88
731: 3d5e9215
732: 3e1e8be7
output: 3e1e8be7
752: 3df9a645
771: 3df9a645
772: 3de790bf
791: 3de790bf
